memory_initialization_radix=2;
memory_initialization_vector =
0000000000010010
1111111111011010
0000000000001000
1111111111011111
0000000000111010
0000000000101111
1111111111011111
0000000000111110
1111111111111001
0000000001000100
1111111111010000
1111111111110110
0000000000101000
0000000000011111
0000000000111111
0000000000010111
0000000000001000
1111111111111100
1111111111101101
1111111111111111
0000000000000001
1111111111011010
0000000000000010
0000000000101011
0000000000001010
0000000000110011
0000000000100111
0000000000110001
0000000000100011
0000000000010101
0000000001010010
0000000001011011
0000000001010100
0000000000110011
0000000001010010
0000000000000011
1111111111101100
1111111111110111
0000000000000110
1111111111110101
1111111111010010
1111111111101011
1111111110110100
1111111110110001
1111111111010011
1111111111010011
1111111111110110
1111111111010011
1111111111110100
1111111111101000
0000000000111100
0000000000111010
0000000000000000
0000000000111000
1111111111101110
0000000001000011
0000000000101001
0000000001001000
1111111111101001
0000000000110101
1111111111101000
0000000000001101
0000000000110100
0000000000111111
0000000000101011
0000000000010110
1111111111010010
0000000000100111
0000000001001001
0000000000111111
1111111111001010
1111111111011000
1111111111100100
0000000000011111
0000000000001101
0000000001000101
0000000000000101
1111111111000111
1111111110111010
1111111111001001
0000000000111011
1111111110101000
1111111111010011
1111111110111110
0000000000011110
0000000000000110
1111111110011001
1111111111010101
1111111111111100
0000000000010110
1111111111010111
1111111110011011
1111111111011011
0000000000001000
0000000000101010
1111111110100101
1111111110111110
1111111111110001
0000000001001111
0000000001011010
0000000001000110
0000000000011110
1000000000000000
1111111111100110
1111111110101111
0000000000010100
0000000000101000
0000000000110110
1111111111111100
1111111111100100
0000000000100011
0000000000101110
1111111111111100
1111111111110000
1111111111111111
0000000000110011
0000000000010100
0000000001000011
1111111111100000
1111111111010010
0000000001001111
0000000000101001
0000000000101000
1111111111100100
0000000000000101
1111111111010110
0000000000001001
0000000000100100
1111111111010000
0000000000000111
1111111111111101
1111111111010101
1111111111100011
0000000000100101
1111111111010100
1111111111101001
1111111111100100
0000000000001010
1111111111010001
1111111111011010
0000000000100111
1111111111010100
1111111111111011
0000000000011010
1111111111101011
1111111111100101
1111111111110011
1111111111110011
0000000000101010
1111111111110111;

